unsigned char env_student_dropped_model_tflite[] = {
  0x1c, 0x00, 0x00, 0x00, 0x54, 0x46, 0x4c, 0x33, 0x14, 0x00, 0x20, 0x00,
  0x1c, 0x00, 0x18, 0x00, 0x14, 0x00, 0x10, 0x00, 0x0c, 0x00, 0x00, 0x00,
  0x08, 0x00, 0x04, 0x00, 0x14, 0x00, 0x00, 0x00, 0x1c, 0x00, 0x00, 0x00,
  0x94, 0x00, 0x00, 0x00, 0xec, 0x00, 0x00, 0x00, 0x7c, 0x07, 0x00, 0x00,
  0x8c, 0x07, 0x00, 0x00, 0x2c, 0x0d, 0x00, 0x00, 0x03, 0x00, 0x00, 0x00,
  0x01, 0x00, 0x00, 0x00, 0x10, 0x00, 0x00, 0x00, 0x00, 0x00, 0x0a, 0x00,
  0x10, 0x00, 0x0c, 0x00, 0x08, 0x00, 0x04, 0x00, 0x0a, 0x00, 0x00, 0x00,
  0x0c, 0x00, 0x00, 0x00, 0x1c, 0x00, 0x00, 0x00, 0x3c, 0x00, 0x00, 0x00,
  0x0f, 0x00, 0x00, 0x00, 0x73, 0x65, 0x72, 0x76, 0x69, 0x6e, 0x67, 0x5f,
  0x64, 0x65, 0x66, 0x61, 0x75, 0x6c, 0x74, 0x00, 0x01, 0x00, 0x00, 0x00,
  0x04, 0x00, 0x00, 0x00, 0x94, 0xff, 0xff, 0xff, 0x0a, 0x00, 0x00, 0x00,
  0x04, 0x00, 0x00, 0x00, 0x08, 0x00, 0x00, 0x00, 0x6f, 0x75, 0x74, 0x70,
  0x75, 0x74, 0x5f, 0x30, 0x00, 0x00, 0x00, 0x00, 0x01, 0x00, 0x00, 0x00,
  0x04, 0x00, 0x00, 0x00, 0x6a, 0xf8, 0xff, 0xff, 0x04, 0x00, 0x00, 0x00,
  0x0b, 0x00, 0x00, 0x00, 0x69, 0x6e, 0x70, 0x75, 0x74, 0x5f, 0x6c, 0x61,
  0x79, 0x65, 0x72, 0x00, 0x02, 0x00, 0x00, 0x00, 0x34, 0x00, 0x00, 0x00,
  0x04, 0x00, 0x00, 0x00, 0xdc, 0xff, 0xff, 0xff, 0x0d, 0x00, 0x00, 0x00,
  0x04, 0x00, 0x00, 0x00, 0x13, 0x00, 0x00, 0x00, 0x43, 0x4f, 0x4e, 0x56,
  0x45, 0x52, 0x53, 0x49, 0x4f, 0x4e, 0x5f, 0x4d, 0x45, 0x54, 0x41, 0x44,
  0x41, 0x54, 0x41, 0x00, 0x08, 0x00, 0x0c, 0x00, 0x08, 0x00, 0x04, 0x00,
  0x08, 0x00, 0x00, 0x00, 0x0c, 0x00, 0x00, 0x00, 0x04, 0x00, 0x00, 0x00,
  0x13, 0x00, 0x00, 0x00, 0x6d, 0x69, 0x6e, 0x5f, 0x72, 0x75, 0x6e, 0x74,
  0x69, 0x6d, 0x65, 0x5f, 0x76, 0x65, 0x72, 0x73, 0x69, 0x6f, 0x6e, 0x00,
  0x0e, 0x00, 0x00, 0x00, 0x8c, 0x06, 0x00, 0x00, 0x84, 0x06, 0x00, 0x00,
  0x54, 0x06, 0x00, 0x00, 0x34, 0x06, 0x00, 0x00, 0xa4, 0x05, 0x00, 0x00,
  0x94, 0x03, 0x00, 0x00, 0x04, 0x01, 0x00, 0x00, 0xb4, 0x00, 0x00, 0x00,
  0xac, 0x00, 0x00, 0x00, 0xa4, 0x00, 0x00, 0x00, 0x9c, 0x00, 0x00, 0x00,
  0x94, 0x00, 0x00, 0x00, 0x74, 0x00, 0x00, 0x00, 0x04, 0x00, 0x00, 0x00,
  0x1a, 0xf9, 0xff, 0xff, 0x04, 0x00, 0x00, 0x00, 0x60, 0x00, 0x00, 0x00,
  0x10, 0x00, 0x00, 0x00, 0x00, 0x00, 0x00, 0x00, 0x08, 0x00, 0x0e, 0x00,
  0x08, 0x00, 0x04, 0x00, 0x08, 0x00, 0x00, 0x00, 0x10, 0x00, 0x00, 0x00,
  0x24, 0x00, 0x00, 0x00, 0x00, 0x00, 0x06, 0x00, 0x08, 0x00, 0x04, 0x00,
  0x06, 0x00, 0x00, 0x00, 0x04, 0x00, 0x00, 0x00, 0x00, 0x00, 0x00, 0x00,
  0x0c, 0x00, 0x18, 0x00, 0x14, 0x00, 0x10, 0x00, 0x0c, 0x00, 0x04, 0x00,
  0x0c, 0x00, 0x00, 0x00, 0xaa, 0x91, 0xe9, 0x8e, 0xe5, 0xa9, 0xe2, 0xdf,
  0x02, 0x00, 0x00, 0x00, 0x02, 0x00, 0x00, 0x00, 0x04, 0x00, 0x00, 0x00,
  0x06, 0x00, 0x00, 0x00, 0x32, 0x2e, 0x32, 0x30, 0x2e, 0x30, 0x00, 0x00,
  0x86, 0xf9, 0xff, 0xff, 0x04, 0x00, 0x00, 0x00, 0x10, 0x00, 0x00, 0x00,
  0x31, 0x2e, 0x35, 0x2e, 0x30, 0x00, 0x00, 0x00, 0x00, 0x00, 0x00, 0x00,
  0x00, 0x00, 0x00, 0x00, 0xb0, 0xf4, 0xff, 0xff, 0xb4, 0xf4, 0xff, 0xff,
  0xb8, 0xf4, 0xff, 0xff, 0xbc, 0xf4, 0xff, 0xff, 0xb2, 0xf9, 0xff, 0xff,
  0x04, 0x00, 0x00, 0x00, 0x40, 0x00, 0x00, 0x00, 0xbb, 0xb0, 0xdf, 0x3e,
  0xbd, 0xeb, 0x16, 0x3e, 0x25, 0x8b, 0x0f, 0xbe, 0x0e, 0x0d, 0xe5, 0x3e,
  0x58, 0xa0, 0xfb, 0x3e, 0x6c, 0xab, 0xa2, 0x3e, 0x0a, 0x8d, 0xa1, 0x3e,
  0x0c, 0x00, 0xb8, 0x3e, 0x5f, 0x22, 0x8d, 0x3e, 0x31, 0x70, 0x77, 0x3e,
  0x52, 0x0a, 0x07, 0x3f, 0x13, 0x9d, 0x9a, 0x3e, 0x31, 0x31, 0x02, 0x3f,
  0x28, 0x10, 0x0f, 0x3f, 0x91, 0x12, 0xb3, 0x3e, 0x18, 0x9e, 0xe3, 0x3e,
  0xfe, 0xf9, 0xff, 0xff, 0x04, 0x00, 0x00, 0x00, 0x80, 0x02, 0x00, 0x00,
  0x25, 0x99, 0x46, 0xbf, 0x8e, 0x73, 0x4f, 0xbe, 0xa9, 0x09, 0xce, 0xbd,
  0xeb, 0x68, 0x6c, 0x3e, 0x9c, 0xd8, 0x99, 0x3e, 0x56, 0x84, 0x26, 0x3e,
  0x67, 0x45, 0x23, 0xbe, 0x82, 0x4d, 0xe8, 0x3e, 0xeb, 0xb6, 0x8a, 0xbe,
  0xb9, 0x0f, 0x23, 0xbf, 0xa5, 0x0b, 0xd0, 0x3d, 0xac, 0xa8, 0x13, 0xbe,
  0xa1, 0x52, 0x86, 0x3e, 0xae, 0x79, 0x18, 0x3f, 0x8e, 0x52, 0xad, 0x3e,
  0xd5, 0xa1, 0xf0, 0x3e, 0xe9, 0x95, 0xbd, 0x3e, 0x0d, 0x5c, 0xa0, 0x3e,
  0xe1, 0x58, 0x03, 0xbe, 0x1c, 0xf7, 0xed, 0x3e, 0x25, 0x30, 0x1b, 0xbd,
  0x20, 0x56, 0xfc, 0x3d, 0x0e, 0x7c, 0xef, 0x3d, 0x72, 0xff, 0xe7, 0x3d,
  0x43, 0x8e, 0xec, 0x3e, 0x92, 0x09, 0x43, 0xbe, 0x6a, 0xbd, 0x57, 0x3e,
  0x87, 0x9b, 0xbe, 0x3e, 0xd3, 0x70, 0x97, 0x3e, 0xa1, 0x2e, 0x13, 0x3f,
  0xca, 0x5c, 0x69, 0x3e, 0x80, 0x58, 0xd8, 0xbe, 0x45, 0x13, 0x4f, 0x3e,
  0xa8, 0xb4, 0x3f, 0xbf, 0xb5, 0xd7, 0xfb, 0x3e, 0x54, 0xaf, 0x44, 0x3e,
  0xf1, 0xbc, 0x61, 0xbe, 0x6c, 0x47, 0xa8, 0xbe, 0xa4, 0x95, 0xbd, 0x3e,
  0x03, 0xa9, 0xa3, 0x3e, 0x99, 0x60, 0xa2, 0x3e, 0x93, 0xec, 0x8a, 0xbe,
  0x6c, 0x1e, 0xe4, 0xbd, 0x8e, 0x53, 0x9a, 0xbe, 0x50, 0x3c, 0x2c, 0xbc,
  0x49, 0x9e, 0x6c, 0x3e, 0xa1, 0xe3, 0xd5, 0x3e, 0xcf, 0xf6, 0xa0, 0x3e,
  0xc2, 0x71, 0x8c, 0x3e, 0x8f, 0xb6, 0x6c, 0xbe, 0x2d, 0xa0, 0xe9, 0xbe,
  0xde, 0x0f, 0xef, 0x3e, 0xf8, 0x8b, 0xcf, 0xbc, 0x80, 0x18, 0xf3, 0xbe,
  0x35, 0xd5, 0x76, 0xbe, 0x29, 0x07, 0x4e, 0xbf, 0x13, 0x1f, 0xc0, 0x3c,
  0x14, 0x74, 0x02, 0xbf, 0x57, 0xb7, 0xac, 0xbe, 0x7b, 0xdc, 0x0f, 0xbf,
  0x4e, 0x00, 0xaf, 0xbe, 0x6d, 0x63, 0x7f, 0xbe, 0xa3, 0x93, 0xc6, 0xbe,
  0x38, 0x30, 0x5c, 0xbe, 0x5e, 0x05, 0x7c, 0xbe, 0x8b, 0x42, 0x8a, 0xbd,
  0x24, 0xeb, 0x75, 0x3e, 0x3b, 0x3e, 0x14, 0xbf, 0xd7, 0x43, 0x36, 0xbf,
  0x9a, 0x91, 0x82, 0x3c, 0x01, 0x7c, 0x29, 0xbe, 0x9e, 0x07, 0xcd, 0x3e,
  0x04, 0x34, 0x1e, 0xbf, 0x4a, 0x88, 0xbc, 0xbe, 0x9c, 0xa0, 0x15, 0x3d,
  0x46, 0x8d, 0x87, 0xbe, 0xd0, 0x9b, 0x1c, 0xbf, 0xd3, 0x59, 0x3e, 0xbe,
  0xdf, 0x50, 0x01, 0xbf, 0x1d, 0x72, 0x6b, 0x3e, 0x3b, 0x17, 0xb6, 0x3e,
  0x3a, 0x8b, 0xe5, 0x3e, 0x09, 0x37, 0x26, 0xbf, 0x64, 0x1b, 0x49, 0x3e,
  0x0d, 0x59, 0xf9, 0xbc, 0xec, 0xf8, 0x22, 0xbf, 0xf4, 0x22, 0x14, 0xbe,
  0x4c, 0x82, 0xa7, 0xbd, 0x67, 0x46, 0x1d, 0x3e, 0x5b, 0xb9, 0x21, 0xbf,
  0x71, 0xce, 0xf3, 0xbd, 0xce, 0x7e, 0xa6, 0x3e, 0x81, 0xd0, 0x20, 0xbf,
  0x15, 0xe4, 0x73, 0xbe, 0x81, 0x68, 0x98, 0x3d, 0x02, 0x6c, 0xe2, 0xbe,
  0xf6, 0xa9, 0x8e, 0xbe, 0x43, 0x46, 0xff, 0xbe, 0xb9, 0x28, 0x94, 0x3d,
  0x0e, 0x01, 0xb7, 0xbe, 0x2f, 0x4f, 0xb7, 0x3e, 0xe2, 0xfc, 0xe4, 0xbe,
  0x6b, 0x0c, 0x10, 0x3e, 0x9c, 0x44, 0x91, 0xbe, 0xef, 0x3d, 0x2b, 0xbf,
  0x68, 0xd4, 0xa3, 0xbe, 0xc1, 0x77, 0x86, 0xbe, 0x75, 0xf7, 0x7c, 0x3e,
  0xb7, 0x02, 0xd7, 0xbe, 0x91, 0xf6, 0xbb, 0xbe, 0x9c, 0x55, 0x96, 0xbe,
  0xc0, 0x16, 0x85, 0x3b, 0x2c, 0x3e, 0xe5, 0xbe, 0xee, 0x0c, 0x73, 0xbe,
  0x87, 0x80, 0xdc, 0xbe, 0x87, 0xe6, 0xd3, 0xbe, 0xe3, 0x03, 0x43, 0xbf,
  0x3a, 0x01, 0x14, 0xbf, 0x85, 0x6c, 0x10, 0xbf, 0xf0, 0xed, 0xca, 0xbe,
  0x02, 0x46, 0x1b, 0x3e, 0xa9, 0x9a, 0xc8, 0xbe, 0x0e, 0x9f, 0x64, 0x3d,
  0x9f, 0xee, 0xc9, 0x3d, 0x48, 0xc1, 0x06, 0x3f, 0x0f, 0x46, 0x40, 0x3e,
  0xdd, 0x03, 0x72, 0x3d, 0x64, 0xcb, 0x88, 0x3e, 0x4e, 0x1a, 0xec, 0xbe,
  0x45, 0x78, 0x3f, 0xba, 0xf6, 0xf9, 0x07, 0x3f, 0x28, 0xc9, 0xb3, 0x3e,
  0xbe, 0xe3, 0xbe, 0xbd, 0x1a, 0x7d, 0x16, 0xbe, 0xa2, 0x9b, 0xde, 0x3e,
  0xc7, 0x70, 0x57, 0x3c, 0x1f, 0x8f, 0xb4, 0x3e, 0xf1, 0xbc, 0xc5, 0x3e,
  0xf1, 0xef, 0x7b, 0xbe, 0x9d, 0x01, 0xee, 0x3c, 0x9a, 0xa1, 0x60, 0xbe,
  0x64, 0xc0, 0x01, 0xbe, 0x27, 0xac, 0xdc, 0xbe, 0xea, 0x5e, 0x09, 0xbf,
  0xf5, 0x07, 0xd8, 0xbe, 0xd1, 0xcc, 0x06, 0xbf, 0x06, 0x6f, 0x38, 0xbd,
  0xd7, 0x31, 0x24, 0xbf, 0x50, 0x5e, 0xeb, 0xbe, 0xd4, 0xfe, 0xfd, 0xbe,
  0x2f, 0x30, 0x0d, 0xbf, 0x90, 0x83, 0x87, 0x3d, 0x48, 0xc4, 0x84, 0xbd,
  0xaa, 0x6e, 0xfc, 0xbe, 0x68, 0x22, 0x63, 0x3e, 0x23, 0x74, 0x3e, 0xbe,
  0x9a, 0xf6, 0xb1, 0x3e, 0xc8, 0xcb, 0xc2, 0x3e, 0xcd, 0x09, 0x5a, 0xbe,
  0x49, 0x14, 0xc3, 0xbe, 0x8a, 0xfc, 0xff, 0xff, 0x04, 0x00, 0x00, 0x00,
  0x00, 0x02, 0x00, 0x00, 0x9e, 0xf9, 0xbc, 0xbe, 0x50, 0x60, 0x44, 0x3f,
  0xcc, 0x82, 0x24, 0x3f, 0xc3, 0x20, 0x43, 0x3f, 0xb1, 0x8a, 0xf8, 0x3e,
  0x0e, 0x82, 0xde, 0xbd, 0x11, 0x88, 0x0c, 0xbf, 0xd2, 0x76, 0xb7, 0xbe,
  0xd8, 0x1f, 0xab, 0x3e, 0xbc, 0x8e, 0xdb, 0x3e, 0x03, 0x6c, 0x70, 0xbe,
  0xe4, 0xbc, 0x16, 0xbf, 0xdf, 0x09, 0xb5, 0x3e, 0x35, 0xc9, 0x08, 0x3f,
  0xcb, 0x20, 0x6b, 0xbf, 0xdc, 0xc4, 0x4d, 0x3e, 0x96, 0x4c, 0x3e, 0x3f,
  0xdd, 0xe0, 0x83, 0xbe, 0x39, 0x87, 0x07, 0xbe, 0xe5, 0x61, 0xd0, 0x3e,
  0x9e, 0x69, 0xd2, 0x3e, 0xf2, 0xc9, 0x3c, 0x3e, 0xdc, 0x11, 0x41, 0x3f,
  0x45, 0xb6, 0x9c, 0xbd, 0xcb, 0xab, 0x4d, 0x3e, 0x8b, 0xef, 0x2e, 0x3f,
  0x0d, 0x75, 0xed, 0x3e, 0xba, 0x94, 0xd6, 0x3e, 0x2c, 0x1a, 0xf7, 0x3d,
  0xdc, 0xcc, 0xfc, 0x3c, 0x47, 0x91, 0xe8, 0x3e, 0xb3, 0x6e, 0x69, 0xbc,
  0xaa, 0x6c, 0x6d, 0x3e, 0x45, 0xdc, 0xd5, 0xbd, 0x27, 0x1a, 0x03, 0xbf,
  0xe3, 0x2f, 0xb0, 0xbe, 0x11, 0x3b, 0x06, 0xbf, 0x81, 0x1f, 0xa5, 0x3e,
  0x1a, 0x67, 0xd0, 0x3e, 0x9c, 0xa9, 0x53, 0x3e, 0x81, 0xab, 0xc9, 0x3e,
  0x0d, 0x1f, 0xf3, 0x3e, 0x31, 0x13, 0x29, 0x3e, 0x4b, 0x3c, 0x27, 0x3e,
  0x53, 0x7b, 0xc4, 0xbe, 0x8f, 0xbe, 0xb5, 0xbc, 0x51, 0xac, 0x31, 0x3f,
  0x58, 0xdb, 0x16, 0x3f, 0xb2, 0x7b, 0xe3, 0x3c, 0x93, 0x48, 0x4f, 0xbe,
  0x5f, 0x04, 0x82, 0xbe, 0xf5, 0xb6, 0xc7, 0xbc, 0xce, 0xdc, 0x98, 0x3e,
  0x85, 0xf5, 0xbc, 0x3e, 0x0e, 0xae, 0xe6, 0xbc, 0x1e, 0x4c, 0x2c, 0x3f,
  0x46, 0x6e, 0x94, 0x3e, 0x77, 0xea, 0x9d, 0x3e, 0xa7, 0x98, 0x1a, 0x3e,
  0x46, 0xea, 0x29, 0x3f, 0xc7, 0xaf, 0x07, 0xbc, 0xec, 0x00, 0x04, 0x3f,
  0xda, 0xa8, 0x48, 0xbe, 0x9b, 0x7a, 0x1c, 0x3f, 0x8d, 0x20, 0x5c, 0xbe,
  0x9b, 0x28, 0x3d, 0x3f, 0x70, 0xb1, 0x99, 0x3e, 0x9e, 0xea, 0xe3, 0xbd,
  0xd8, 0x95, 0x9a, 0x3e, 0x42, 0x8e, 0x87, 0xbd, 0x32, 0x9c, 0x4a, 0x3e,
  0x13, 0xaa, 0xb5, 0xbe, 0x29, 0x71, 0x80, 0xbe, 0x72, 0x13, 0x8a, 0xbe,
  0x8b, 0x14, 0x6a, 0xbd, 0x73, 0xe7, 0xcd, 0x3e, 0x6f, 0x38, 0xa8, 0xbd,
  0x5f, 0xda, 0x05, 0xbe, 0x36, 0x13, 0x06, 0xbf, 0x81, 0x82, 0xed, 0xbe,
  0xbe, 0x79, 0x26, 0x3f, 0x18, 0xa4, 0x90, 0x3e, 0xab, 0xc0, 0x05, 0xbe,
  0x6b, 0xaf, 0x69, 0x3f, 0x51, 0xe1, 0x2d, 0x3f, 0xc9, 0xb3, 0x42, 0x3e,
  0xc6, 0xe3, 0xae, 0xbe, 0xf9, 0x64, 0x02, 0xbf, 0xc1, 0xf6, 0x88, 0x3d,
  0xd8, 0x9d, 0x9d, 0xbe, 0x33, 0x53, 0xeb, 0x3e, 0x64, 0xf9, 0x38, 0xbf,
  0xc5, 0x37, 0xdc, 0x3e, 0xb3, 0xfc, 0x09, 0x3f, 0x70, 0xc4, 0x09, 0xbf,
  0x33, 0x0d, 0x40, 0x3e, 0x94, 0x73, 0x7a, 0x3e, 0x21, 0xe0, 0xdf, 0x3e,
  0x80, 0xa6, 0x94, 0x3b, 0x52, 0x7b, 0xe7, 0xbd, 0x83, 0x12, 0xd2, 0x3e,
  0x0a, 0x4b, 0xf9, 0xbe, 0x8b, 0x6f, 0x63, 0x3e, 0x9d, 0xf6, 0xca, 0x3d,
  0x4a, 0xde, 0x54, 0x3d, 0x4f, 0xa6, 0x84, 0x3e, 0x4a, 0xff, 0x9a, 0x3e,
  0xa4, 0x3a, 0x5e, 0xbf, 0xeb, 0x13, 0x25, 0x3f, 0x1c, 0x3c, 0x2d, 0x3f,
  0x72, 0x1b, 0xb6, 0xbe, 0x4e, 0x0b, 0xd2, 0x3e, 0x3b, 0x9c, 0x9e, 0x3e,
  0x3a, 0x13, 0x15, 0xbf, 0xf9, 0x57, 0xd7, 0x3d, 0x0c, 0xd7, 0x87, 0xbe,
  0x92, 0xb2, 0x0a, 0x3d, 0xdd, 0x48, 0xed, 0x3e, 0xed, 0x92, 0xba, 0x3e,
  0x2e, 0xf5, 0x6f, 0x3e, 0x66, 0xdd, 0x7b, 0x3e, 0x4b, 0xa9, 0x08, 0x3e,
  0xd3, 0xfc, 0xb7, 0x3d, 0x31, 0x29, 0x21, 0x3f, 0x91, 0x1d, 0x87, 0x3d,
  0xf6, 0x95, 0xc7, 0xbe, 0x60, 0x0c, 0x1f, 0x3e, 0x96, 0x71, 0x7e, 0x3e,
  0x96, 0xfe, 0xff, 0xff, 0x04, 0x00, 0x00, 0x00, 0x80, 0x00, 0x00, 0x00,
  0x51, 0x15, 0x1e, 0xbf, 0xe5, 0x49, 0x70, 0xbf, 0xfd, 0xa8, 0xd4, 0x3d,
  0x89, 0x8a, 0xb7, 0x3d, 0xc6, 0xfd, 0x46, 0xbe, 0xe8, 0x53, 0x56, 0xbf,
  0xc8, 0x9f, 0x51, 0xbf, 0xd2, 0x34, 0xc8, 0x3e, 0x67, 0x7b, 0xd0, 0xbe,
  0x07, 0x30, 0x04, 0x3f, 0x4d, 0xc8, 0x58, 0x3f, 0xa0, 0x0d, 0x4f, 0x3f,
  0x25, 0xa4, 0xf2, 0xbe, 0xf9, 0x7e, 0x5c, 0xbf, 0x97, 0x43, 0x59, 0xbf,
  0x45, 0x5a, 0xbb, 0x3e, 0xfb, 0x2c, 0x2d, 0x3e, 0xdb, 0xcc, 0x75, 0x3e,
  0x7a, 0xd1, 0x11, 0xbf, 0xfc, 0x50, 0x77, 0x3e, 0x97, 0xfb, 0x94, 0xbe,
  0x69, 0x0c, 0xa4, 0xbd, 0x9f, 0x51, 0xb2, 0x3d, 0xec, 0x30, 0x8c, 0xbf,
  0x79, 0xba, 0x12, 0x3f, 0x17, 0xf3, 0x0e, 0xbf, 0x29, 0x3b, 0x6d, 0x3c,
  0xa2, 0x33, 0x75, 0xbf, 0xcc, 0x18, 0x7f, 0x3f, 0x98, 0x5b, 0xd2, 0xbe,
  0xf0, 0x39, 0x16, 0xbf, 0x3e, 0x9f, 0x36, 0xbf, 0x22, 0xff, 0xff, 0xff,
  0x04, 0x00, 0x00, 0x00, 0x10, 0x00, 0x00, 0x00, 0x8f, 0x3d, 0x2d, 0xbe,
  0xe8, 0x6c, 0xf8, 0x3a, 0xe7, 0x82, 0xbf, 0x3e, 0xeb, 0x1b, 0x9e, 0xbe,
  0x3e, 0xff, 0xff, 0xff, 0x04, 0x00, 0x00, 0x00, 0x20, 0x00, 0x00, 0x00,
  0x76, 0x44, 0x54, 0x3e, 0x67, 0x5e, 0x72, 0x3e, 0x99, 0x9b, 0x91, 0x3d,
  0x4e, 0x84, 0xaa, 0x3e, 0xc0, 0xd8, 0x89, 0xbe, 0x63, 0xe4, 0x1a, 0x3f,
  0x50, 0x7c, 0xea, 0x3e, 0xd7, 0xbf, 0xb8, 0x3c, 0x78, 0xfa, 0xff, 0xff,
  0x7c, 0xfa, 0xff, 0xff, 0x0f, 0x00, 0x00, 0x00, 0x4d, 0x4c, 0x49, 0x52,
  0x20, 0x43, 0x6f, 0x6e, 0x76, 0x65, 0x72, 0x74, 0x65, 0x64, 0x2e, 0x00,
  0x01, 0x00, 0x00, 0x00, 0x14, 0x00, 0x00, 0x00, 0x00, 0x00, 0x0e, 0x00,
  0x18, 0x00, 0x14, 0x00, 0x10, 0x00, 0x0c, 0x00, 0x08, 0x00, 0x04, 0x00,
  0x0e, 0x00, 0x00, 0x00, 0x14, 0x00, 0x00, 0x00, 0x1c, 0x00, 0x00, 0x00,
  0x24, 0x01, 0x00, 0x00, 0x28, 0x01, 0x00, 0x00, 0x2c, 0x01, 0x00, 0x00,
  0x04, 0x00, 0x00, 0x00, 0x6d, 0x61, 0x69, 0x6e, 0x00, 0x00, 0x00, 0x00,
  0x04, 0x00, 0x00, 0x00, 0xcc, 0x00, 0x00, 0x00, 0x84, 0x00, 0x00, 0x00,
  0x50, 0x00, 0x00, 0x00, 0x14, 0x00, 0x00, 0x00, 0x00, 0x00, 0x0e, 0x00,
  0x1a, 0x00, 0x14, 0x00, 0x10, 0x00, 0x0c, 0x00, 0x0b, 0x00, 0x04, 0x00,
  0x0e, 0x00, 0x00, 0x00, 0x1c, 0x00, 0x00, 0x00, 0x00, 0x00, 0x00, 0x09,
  0x1c, 0x00, 0x00, 0x00, 0x20, 0x00, 0x00, 0x00, 0x01, 0x00, 0x00, 0x00,
  0x00, 0x00, 0x06, 0x00, 0x08, 0x00, 0x04, 0x00, 0x06, 0x00, 0x00, 0x00,
  0x00, 0x00, 0x80, 0x3f, 0x01, 0x00, 0x00, 0x00, 0x0a, 0x00, 0x00, 0x00,
  0x01, 0x00, 0x00, 0x00, 0x09, 0x00, 0x00, 0x00, 0x9a, 0xff, 0xff, 0xff,
  0x10, 0x00, 0x00, 0x00, 0x00, 0x00, 0x00, 0x08, 0x0c, 0x00, 0x00, 0x00,
  0x10, 0x00, 0x00, 0x00, 0x40, 0xfb, 0xff, 0xff, 0x01, 0x00, 0x00, 0x00,
  0x09, 0x00, 0x00, 0x00, 0x03, 0x00, 0x00, 0x00, 0x08, 0x00, 0x00, 0x00,
  0x03, 0x00, 0x00, 0x00, 0x02, 0x00, 0x00, 0x00, 0xca, 0xff, 0xff, 0xff,
  0x10, 0x00, 0x00, 0x00, 0x00, 0x00, 0x00, 0x08, 0x10, 0x00, 0x00, 0x00,
  0x14, 0x00, 0x00, 0x00, 0xba, 0xff, 0xff, 0xff, 0x00, 0x00, 0x00, 0x01,
  0x01, 0x00, 0x00, 0x00, 0x08, 0x00, 0x00, 0x00, 0x03, 0x00, 0x00, 0x00,
  0x07, 0x00, 0x00, 0x00, 0x04, 0x00, 0x00, 0x00, 0x01, 0x00, 0x00, 0x00,
  0x00, 0x00, 0x0e, 0x00, 0x16, 0x00, 0x00, 0x00, 0x10, 0x00, 0x0c, 0x00,
  0x0b, 0x00, 0x04, 0x00, 0x0e, 0x00, 0x00, 0x00, 0x18, 0x00, 0x00, 0x00,
  0x00, 0x00, 0x00, 0x08, 0x18, 0x00, 0x00, 0x00, 0x1c, 0x00, 0x00, 0x00,
  0x00, 0x00, 0x06, 0x00, 0x08, 0x00, 0x07, 0x00, 0x06, 0x00, 0x00, 0x00,
  0x00, 0x00, 0x00, 0x01, 0x01, 0x00, 0x00, 0x00, 0x07, 0x00, 0x00, 0x00,
  0x03, 0x00, 0x00, 0x00, 0x00, 0x00, 0x00, 0x00, 0x05, 0x00, 0x00, 0x00,
  0x06, 0x00, 0x00, 0x00, 0x01, 0x00, 0x00, 0x00, 0x0a, 0x00, 0x00, 0x00,
  0x01, 0x00, 0x00, 0x00, 0x00, 0x00, 0x00, 0x00, 0x0b, 0x00, 0x00, 0x00,
  0xe8, 0x03, 0x00, 0x00, 0x94, 0x03, 0x00, 0x00, 0x40, 0x03, 0x00, 0x00,
  0x00, 0x03, 0x00, 0x00, 0xc0, 0x02, 0x00, 0x00, 0x74, 0x02, 0x00, 0x00,
  0x10, 0x02, 0x00, 0x00, 0x7c, 0x01, 0x00, 0x00, 0xe0, 0x00, 0x00, 0x00,
  0x60, 0x00, 0x00, 0x00, 0x04, 0x00, 0x00, 0x00, 0x5a, 0xfc, 0xff, 0xff,
  0x00, 0x00, 0x00, 0x01, 0x14, 0x00, 0x00, 0x00, 0x1c, 0x00, 0x00, 0x00,
  0x1c, 0x00, 0x00, 0x00, 0x0b, 0x00, 0x00, 0x00, 0x34, 0x00, 0x00, 0x00,
  0x02, 0x00, 0x00, 0x00, 0xff, 0xff, 0xff, 0xff, 0x04, 0x00, 0x00, 0x00,
  0x44, 0xfc, 0xff, 0xff, 0x1b, 0x00, 0x00, 0x00, 0x53, 0x74, 0x61, 0x74,
  0x65, 0x66, 0x75, 0x6c, 0x50, 0x61, 0x72, 0x74, 0x69, 0x74, 0x69, 0x6f,
  0x6e, 0x65, 0x64, 0x43, 0x61, 0x6c, 0x6c, 0x5f, 0x31, 0x3a, 0x30, 0x00,
  0x02, 0x00, 0x00, 0x00, 0x01, 0x00, 0x00, 0x00, 0x04, 0x00, 0x00, 0x00,
  0xb2, 0xfc, 0xff, 0xff, 0x00, 0x00, 0x00, 0x01, 0x14, 0x00, 0x00, 0x00,
  0x1c, 0x00, 0x00, 0x00, 0x1c, 0x00, 0x00, 0x00, 0x0a, 0x00, 0x00, 0x00,
  0x58, 0x00, 0x00, 0x00, 0x02, 0x00, 0x00, 0x00, 0xff, 0xff, 0xff, 0xff,
  0x04, 0x00, 0x00, 0x00, 0x9c, 0xfc, 0xff, 0xff, 0x3c, 0x00, 0x00, 0x00,
  0x73, 0x65, 0x71, 0x75, 0x65, 0x6e, 0x74, 0x69, 0x61, 0x6c, 0x5f, 0x31,
  0x2f, 0x64, 0x65, 0x6e, 0x73, 0x65, 0x5f, 0x32, 0x5f, 0x31, 0x2f, 0x4d,
  0x61, 0x74, 0x4d, 0x75, 0x6c, 0x3b, 0x73, 0x65, 0x71, 0x75, 0x65, 0x6e,
  0x74, 0x69, 0x61, 0x6c, 0x5f, 0x31, 0x2f, 0x64, 0x65, 0x6e, 0x73, 0x65,
  0x5f, 0x32, 0x5f, 0x31, 0x2f, 0x42, 0x69, 0x61, 0x73, 0x41, 0x64, 0x64,
  0x00, 0x00, 0x00, 0x00, 0x02, 0x00, 0x00, 0x00, 0x01, 0x00, 0x00, 0x00,
  0x04, 0x00, 0x00, 0x00, 0x2e, 0xfd, 0xff, 0xff, 0x00, 0x00, 0x00, 0x01,
  0x14, 0x00, 0x00, 0x00, 0x1c, 0x00, 0x00, 0x00, 0x1c, 0x00, 0x00, 0x00,
  0x09, 0x00, 0x00, 0x00, 0x74, 0x00, 0x00, 0x00, 0x02, 0x00, 0x00, 0x00,
  0xff, 0xff, 0xff, 0xff, 0x08, 0x00, 0x00, 0x00, 0x18, 0xfd, 0xff, 0xff,
  0x58, 0x00, 0x00, 0x00, 0x73, 0x65, 0x71, 0x75, 0x65, 0x6e, 0x74, 0x69,
  0x61, 0x6c, 0x5f, 0x31, 0x2f, 0x64, 0x65, 0x6e, 0x73, 0x65, 0x5f, 0x31,
  0x5f, 0x32, 0x2f, 0x4d, 0x61, 0x74, 0x4d, 0x75, 0x6c, 0x3b, 0x73, 0x65,
  0x71, 0x75, 0x65, 0x6e, 0x74, 0x69, 0x61, 0x6c, 0x5f, 0x31, 0x2f, 0x64,
  0x65, 0x6e, 0x73, 0x65, 0x5f, 0x31, 0x5f, 0x32, 0x2f, 0x52, 0x65, 0x6c,
  0x75, 0x3b, 0x73, 0x65, 0x71, 0x75, 0x65, 0x6e, 0x74, 0x69, 0x61, 0x6c,
  0x5f, 0x31, 0x2f, 0x64, 0x65, 0x6e, 0x73, 0x65, 0x5f, 0x31, 0x5f, 0x32,
  0x2f, 0x42, 0x69, 0x61, 0x73, 0x41, 0x64, 0x64, 0x00, 0x00, 0x00, 0x00,
  0x02, 0x00, 0x00, 0x00, 0x01, 0x00, 0x00, 0x00, 0x08, 0x00, 0x00, 0x00,
  0xc6, 0xfd, 0xff, 0xff, 0x00, 0x00, 0x00, 0x01, 0x14, 0x00, 0x00, 0x00,
  0x1c, 0x00, 0x00, 0x00, 0x1c, 0x00, 0x00, 0x00, 0x08, 0x00, 0x00, 0x00,
  0x6c, 0x00, 0x00, 0x00, 0x02, 0x00, 0x00, 0x00, 0xff, 0xff, 0xff, 0xff,
  0x10, 0x00, 0x00, 0x00, 0xb0, 0xfd, 0xff, 0xff, 0x52, 0x00, 0x00, 0x00,
  0x73, 0x65, 0x71, 0x75, 0x65, 0x6e, 0x74, 0x69, 0x61, 0x6c, 0x5f, 0x31,
  0x2f, 0x64, 0x65, 0x6e, 0x73, 0x65, 0x5f, 0x31, 0x2f, 0x4d, 0x61, 0x74,
  0x4d, 0x75, 0x6c, 0x3b, 0x73, 0x65, 0x71, 0x75, 0x65, 0x6e, 0x74, 0x69,
  0x61, 0x6c, 0x5f, 0x31, 0x2f, 0x64, 0x65, 0x6e, 0x73, 0x65, 0x5f, 0x31,
  0x2f, 0x52, 0x65, 0x6c, 0x75, 0x3b, 0x73, 0x65, 0x71, 0x75, 0x65, 0x6e,
  0x74, 0x69, 0x61, 0x6c, 0x5f, 0x31, 0x2f, 0x64, 0x65, 0x6e, 0x73, 0x65,
  0x5f, 0x31, 0x2f, 0x42, 0x69, 0x61, 0x73, 0x41, 0x64, 0x64, 0x00, 0x00,
  0x02, 0x00, 0x00, 0x00, 0x01, 0x00, 0x00, 0x00, 0x10, 0x00, 0x00, 0x00,
  0xa6, 0xfe, 0xff, 0xff, 0x00, 0x00, 0x00, 0x01, 0x10, 0x00, 0x00, 0x00,
  0x10, 0x00, 0x00, 0x00, 0x07, 0x00, 0x00, 0x00, 0x44, 0x00, 0x00, 0x00,
  0x30, 0xfe, 0xff, 0xff, 0x36, 0x00, 0x00, 0x00, 0x73, 0x65, 0x71, 0x75,
  0x65, 0x6e, 0x74, 0x69, 0x61, 0x6c, 0x5f, 0x31, 0x2f, 0x64, 0x65, 0x6e,
  0x73, 0x65, 0x5f, 0x31, 0x2f, 0x52, 0x65, 0x6c, 0x75, 0x3b, 0x73, 0x65,
  0x71, 0x75, 0x65, 0x6e, 0x74, 0x69, 0x61, 0x6c, 0x5f, 0x31, 0x2f, 0x64,
  0x65, 0x6e, 0x73, 0x65, 0x5f, 0x31, 0x2f, 0x42, 0x69, 0x61, 0x73, 0x41,
  0x64, 0x64, 0x00, 0x00, 0x01, 0x00, 0x00, 0x00, 0x10, 0x00, 0x00, 0x00,
  0x06, 0xff, 0xff, 0xff, 0x00, 0x00, 0x00, 0x01, 0x10, 0x00, 0x00, 0x00,
  0x10, 0x00, 0x00, 0x00, 0x06, 0x00, 0x00, 0x00, 0x28, 0x00, 0x00, 0x00,
  0x90, 0xfe, 0xff, 0xff, 0x1b, 0x00, 0x00, 0x00, 0x73, 0x65, 0x71, 0x75,
  0x65, 0x6e, 0x74, 0x69, 0x61, 0x6c, 0x5f, 0x31, 0x2f, 0x64, 0x65, 0x6e,
  0x73, 0x65, 0x5f, 0x31, 0x2f, 0x4d, 0x61, 0x74, 0x4d, 0x75, 0x6c, 0x00,
  0x02, 0x00, 0x00, 0x00, 0x10, 0x00, 0x00, 0x00, 0x0a, 0x00, 0x00, 0x00,
  0x4e, 0xff, 0xff, 0xff, 0x00, 0x00, 0x00, 0x01, 0x10, 0x00, 0x00, 0x00,
  0x10, 0x00, 0x00, 0x00, 0x05, 0x00, 0x00, 0x00, 0x1c, 0x00, 0x00, 0x00,
  0xd8, 0xfe, 0xff, 0xff, 0x0f, 0x00, 0x00, 0x00, 0x61, 0x72, 0x69, 0x74,
  0x68, 0x2e, 0x63, 0x6f, 0x6e, 0x73, 0x74, 0x61, 0x6e, 0x74, 0x33, 0x00,
  0x02, 0x00, 0x00, 0x00, 0x08, 0x00, 0x00, 0x00, 0x10, 0x00, 0x00, 0x00,
  0x8a, 0xff, 0xff, 0xff, 0x00, 0x00, 0x00, 0x01, 0x10, 0x00, 0x00, 0x00,
  0x10, 0x00, 0x00, 0x00, 0x04, 0x00, 0x00, 0x00, 0x1c, 0x00, 0x00, 0x00,
  0x14, 0xff, 0xff, 0xff, 0x0f, 0x00, 0x00, 0x00, 0x61, 0x72, 0x69, 0x74,
  0x68, 0x2e, 0x63, 0x6f, 0x6e, 0x73, 0x74, 0x61, 0x6e, 0x74, 0x32, 0x00,
  0x02, 0x00, 0x00, 0x00, 0x04, 0x00, 0x00, 0x00, 0x08, 0x00, 0x00, 0x00,
  0xc6, 0xff, 0xff, 0xff, 0x00, 0x00, 0x00, 0x01, 0x10, 0x00, 0x00, 0x00,
  0x10, 0x00, 0x00, 0x00, 0x03, 0x00, 0x00, 0x00, 0x1c, 0x00, 0x00, 0x00,
  0x50, 0xff, 0xff, 0xff, 0x0f, 0x00, 0x00, 0x00, 0x61, 0x72, 0x69, 0x74,
  0x68, 0x2e, 0x63, 0x6f, 0x6e, 0x73, 0x74, 0x61, 0x6e, 0x74, 0x31, 0x00,
  0x01, 0x00, 0x00, 0x00, 0x04, 0x00, 0x00, 0x00, 0x00, 0x00, 0x16, 0x00,
  0x18, 0x00, 0x14, 0x00, 0x00, 0x00, 0x10, 0x00, 0x0c, 0x00, 0x08, 0x00,
  0x00, 0x00, 0x00, 0x00, 0x00, 0x00, 0x07, 0x00, 0x16, 0x00, 0x00, 0x00,
  0x00, 0x00, 0x00, 0x01, 0x10, 0x00, 0x00, 0x00, 0x10, 0x00, 0x00, 0x00,
  0x02, 0x00, 0x00, 0x00, 0x1c, 0x00, 0x00, 0x00, 0xa0, 0xff, 0xff, 0xff,
  0x0e, 0x00, 0x00, 0x00, 0x61, 0x72, 0x69, 0x74, 0x68, 0x2e, 0x63, 0x6f,
  0x6e, 0x73, 0x74, 0x61, 0x6e, 0x74, 0x00, 0x00, 0x01, 0x00, 0x00, 0x00,
  0x08, 0x00, 0x00, 0x00, 0x00, 0x00, 0x16, 0x00, 0x1c, 0x00, 0x18, 0x00,
  0x00, 0x00, 0x14, 0x00, 0x10, 0x00, 0x0c, 0x00, 0x00, 0x00, 0x00, 0x00,
  0x08, 0x00, 0x07, 0x00, 0x16, 0x00, 0x00, 0x00, 0x00, 0x00, 0x00, 0x01,
  0x14, 0x00, 0x00, 0x00, 0x20, 0x00, 0x00, 0x00, 0x20, 0x00, 0x00, 0x00,
  0x01, 0x00, 0x00, 0x00, 0x3c, 0x00, 0x00, 0x00, 0x02, 0x00, 0x00, 0x00,
  0xff, 0xff, 0xff, 0xff, 0x0a, 0x00, 0x00, 0x00, 0x04, 0x00, 0x04, 0x00,
  0x04, 0x00, 0x00, 0x00, 0x1d, 0x00, 0x00, 0x00, 0x73, 0x65, 0x72, 0x76,
  0x69, 0x6e, 0x67, 0x5f, 0x64, 0x65, 0x66, 0x61, 0x75, 0x6c, 0x74, 0x5f,
  0x69, 0x6e, 0x70, 0x75, 0x74, 0x5f, 0x6c, 0x61, 0x79, 0x65, 0x72, 0x3a,
  0x30, 0x00, 0x00, 0x00, 0x02, 0x00, 0x00, 0x00, 0x01, 0x00, 0x00, 0x00,
  0x0a, 0x00, 0x00, 0x00, 0x02, 0x00, 0x00, 0x00, 0x20, 0x00, 0x00, 0x00,
  0x04, 0x00, 0x00, 0x00, 0xf4, 0xff, 0xff, 0xff, 0x19, 0x00, 0x00, 0x00,
  0x00, 0x00, 0x00, 0x19, 0x0c, 0x00, 0x0c, 0x00, 0x0b, 0x00, 0x00, 0x00,
  0x00, 0x00, 0x04, 0x00, 0x0c, 0x00, 0x00, 0x00, 0x09, 0x00, 0x00, 0x00,
  0x00, 0x00, 0x00, 0x09
};
unsigned int env_student_dropped_model_tflite_len = 3472;
