unsigned char env_student_model_tflite[] = {
  0x1c, 0x00, 0x00, 0x00, 0x54, 0x46, 0x4c, 0x33, 0x14, 0x00, 0x20, 0x00,
  0x1c, 0x00, 0x18, 0x00, 0x14, 0x00, 0x10, 0x00, 0x0c, 0x00, 0x00, 0x00,
  0x08, 0x00, 0x04, 0x00, 0x14, 0x00, 0x00, 0x00, 0x1c, 0x00, 0x00, 0x00,
  0x94, 0x00, 0x00, 0x00, 0xec, 0x00, 0x00, 0x00, 0xbc, 0x08, 0x00, 0x00,
  0xcc, 0x08, 0x00, 0x00, 0x6c, 0x0e, 0x00, 0x00, 0x03, 0x00, 0x00, 0x00,
  0x01, 0x00, 0x00, 0x00, 0x10, 0x00, 0x00, 0x00, 0x00, 0x00, 0x0a, 0x00,
  0x10, 0x00, 0x0c, 0x00, 0x08, 0x00, 0x04, 0x00, 0x0a, 0x00, 0x00, 0x00,
  0x0c, 0x00, 0x00, 0x00, 0x1c, 0x00, 0x00, 0x00, 0x3c, 0x00, 0x00, 0x00,
  0x0f, 0x00, 0x00, 0x00, 0x73, 0x65, 0x72, 0x76, 0x69, 0x6e, 0x67, 0x5f,
  0x64, 0x65, 0x66, 0x61, 0x75, 0x6c, 0x74, 0x00, 0x01, 0x00, 0x00, 0x00,
  0x04, 0x00, 0x00, 0x00, 0x94, 0xff, 0xff, 0xff, 0x0a, 0x00, 0x00, 0x00,
  0x04, 0x00, 0x00, 0x00, 0x08, 0x00, 0x00, 0x00, 0x6f, 0x75, 0x74, 0x70,
  0x75, 0x74, 0x5f, 0x30, 0x00, 0x00, 0x00, 0x00, 0x01, 0x00, 0x00, 0x00,
  0x04, 0x00, 0x00, 0x00, 0x2a, 0xf7, 0xff, 0xff, 0x04, 0x00, 0x00, 0x00,
  0x0b, 0x00, 0x00, 0x00, 0x69, 0x6e, 0x70, 0x75, 0x74, 0x5f, 0x6c, 0x61,
  0x79, 0x65, 0x72, 0x00, 0x02, 0x00, 0x00, 0x00, 0x34, 0x00, 0x00, 0x00,
  0x04, 0x00, 0x00, 0x00, 0xdc, 0xff, 0xff, 0xff, 0x0d, 0x00, 0x00, 0x00,
  0x04, 0x00, 0x00, 0x00, 0x13, 0x00, 0x00, 0x00, 0x43, 0x4f, 0x4e, 0x56,
  0x45, 0x52, 0x53, 0x49, 0x4f, 0x4e, 0x5f, 0x4d, 0x45, 0x54, 0x41, 0x44,
  0x41, 0x54, 0x41, 0x00, 0x08, 0x00, 0x0c, 0x00, 0x08, 0x00, 0x04, 0x00,
  0x08, 0x00, 0x00, 0x00, 0x0c, 0x00, 0x00, 0x00, 0x04, 0x00, 0x00, 0x00,
  0x13, 0x00, 0x00, 0x00, 0x6d, 0x69, 0x6e, 0x5f, 0x72, 0x75, 0x6e, 0x74,
  0x69, 0x6d, 0x65, 0x5f, 0x76, 0x65, 0x72, 0x73, 0x69, 0x6f, 0x6e, 0x00,
  0x0e, 0x00, 0x00, 0x00, 0xcc, 0x07, 0x00, 0x00, 0xc4, 0x07, 0x00, 0x00,
  0x94, 0x07, 0x00, 0x00, 0x74, 0x07, 0x00, 0x00, 0xe4, 0x06, 0x00, 0x00,
  0xd4, 0x04, 0x00, 0x00, 0x04, 0x01, 0x00, 0x00, 0xb4, 0x00, 0x00, 0x00,
  0xac, 0x00, 0x00, 0x00, 0xa4, 0x00, 0x00, 0x00, 0x9c, 0x00, 0x00, 0x00,
  0x94, 0x00, 0x00, 0x00, 0x74, 0x00, 0x00, 0x00, 0x04, 0x00, 0x00, 0x00,
  0xda, 0xf7, 0xff, 0xff, 0x04, 0x00, 0x00, 0x00, 0x60, 0x00, 0x00, 0x00,
  0x10, 0x00, 0x00, 0x00, 0x00, 0x00, 0x00, 0x00, 0x08, 0x00, 0x0e, 0x00,
  0x08, 0x00, 0x04, 0x00, 0x08, 0x00, 0x00, 0x00, 0x10, 0x00, 0x00, 0x00,
  0x24, 0x00, 0x00, 0x00, 0x00, 0x00, 0x06, 0x00, 0x08, 0x00, 0x04, 0x00,
  0x06, 0x00, 0x00, 0x00, 0x04, 0x00, 0x00, 0x00, 0x00, 0x00, 0x00, 0x00,
  0x0c, 0x00, 0x18, 0x00, 0x14, 0x00, 0x10, 0x00, 0x0c, 0x00, 0x04, 0x00,
  0x0c, 0x00, 0x00, 0x00, 0xa9, 0x6b, 0x1b, 0xa6, 0x10, 0x9a, 0x9c, 0x9c,
  0x02, 0x00, 0x00, 0x00, 0x02, 0x00, 0x00, 0x00, 0x04, 0x00, 0x00, 0x00,
  0x06, 0x00, 0x00, 0x00, 0x32, 0x2e, 0x32, 0x30, 0x2e, 0x30, 0x00, 0x00,
  0x46, 0xf8, 0xff, 0xff, 0x04, 0x00, 0x00, 0x00, 0x10, 0x00, 0x00, 0x00,
  0x31, 0x2e, 0x35, 0x2e, 0x30, 0x00, 0x00, 0x00, 0x00, 0x00, 0x00, 0x00,
  0x00, 0x00, 0x00, 0x00, 0x70, 0xf3, 0xff, 0xff, 0x74, 0xf3, 0xff, 0xff,
  0x78, 0xf3, 0xff, 0xff, 0x7c, 0xf3, 0xff, 0xff, 0x72, 0xf8, 0xff, 0xff,
  0x04, 0x00, 0x00, 0x00, 0x40, 0x00, 0x00, 0x00, 0x31, 0xf7, 0xfc, 0x3e,
  0xf6, 0xd2, 0x0a, 0xbe, 0xdd, 0x8a, 0x00, 0x3d, 0x3e, 0xb4, 0xf7, 0xbe,
  0x78, 0x1c, 0xe5, 0x3e, 0xcb, 0xb1, 0xac, 0x3e, 0xa9, 0x95, 0xd7, 0x3e,
  0xfa, 0x94, 0xde, 0x3e, 0xdc, 0x38, 0xdc, 0x3e, 0x10, 0x0f, 0x1b, 0x3e,
  0xc4, 0x07, 0x02, 0x3e, 0x3d, 0xbd, 0xb0, 0x3e, 0x90, 0xa6, 0xaa, 0x3d,
  0x35, 0xe8, 0x6c, 0xbe, 0xfb, 0x34, 0xd3, 0x3e, 0xf4, 0x74, 0x59, 0xbe,
  0xbe, 0xf8, 0xff, 0xff, 0x04, 0x00, 0x00, 0x00, 0xc0, 0x03, 0x00, 0x00,
  0x43, 0x90, 0x04, 0x3e, 0x1c, 0x14, 0xa9, 0xbe, 0x00, 0x83, 0xbc, 0xbd,
  0x63, 0x94, 0xa8, 0xbe, 0xbd, 0x1e, 0x51, 0xbe, 0x40, 0x53, 0xd6, 0xbe,
  0x0b, 0x13, 0x81, 0x3e, 0x1c, 0x66, 0x8b, 0xbe, 0x78, 0xb3, 0x9d, 0x3e,
  0xdf, 0xac, 0x45, 0x3d, 0x75, 0x72, 0xe4, 0x3e, 0x2d, 0x03, 0x03, 0xbe,
  0xe1, 0xd0, 0x3b, 0xbe, 0xe1, 0xb8, 0xfc, 0x3e, 0x39, 0x22, 0xaa, 0xbd,
  0xfc, 0x90, 0xff, 0x3d, 0x70, 0x52, 0xc8, 0xbc, 0x57, 0xdb, 0xcb, 0xbe,
  0x39, 0xcb, 0xb0, 0xbe, 0x3d, 0x9f, 0xaa, 0xbe, 0x0f, 0x9f, 0x6c, 0xbe,
  0xd8, 0x97, 0x49, 0x3d, 0xe0, 0x24, 0x8c, 0x3c, 0xde, 0x91, 0xff, 0xbe,
  0x95, 0x40, 0x14, 0xbe, 0x64, 0xed, 0x8b, 0x3e, 0x89, 0xfc, 0xe2, 0x3d,
  0x09, 0x8e, 0x95, 0xbc, 0xad, 0x35, 0x0c, 0xbf, 0x85, 0x45, 0x84, 0xbe,
  0x21, 0xd3, 0x80, 0xbe, 0xa4, 0x62, 0x7c, 0x3e, 0xce, 0xc4, 0xdd, 0x3e,
  0xf3, 0xc3, 0x54, 0xbe, 0x01, 0x6a, 0x87, 0xbe, 0xe1, 0x4c, 0x5e, 0xbe,
  0xef, 0x7b, 0xbe, 0xbe, 0x54, 0xc3, 0xc5, 0x3e, 0x26, 0xf8, 0x8c, 0xbe,
  0xd3, 0xce, 0x36, 0x3e, 0x06, 0xe5, 0xd5, 0xbd, 0x3c, 0x2e, 0x38, 0xbe,
  0xb4, 0xa7, 0xed, 0xbd, 0xb2, 0x25, 0x8d, 0xbe, 0x82, 0x07, 0x7b, 0xbb,
  0x23, 0xd5, 0xaa, 0x3d, 0x12, 0xd9, 0xca, 0x3e, 0x32, 0x37, 0x80, 0x3e,
  0x5a, 0xfc, 0xe6, 0x3d, 0x9a, 0xe2, 0xb7, 0x3d, 0x41, 0x1b, 0xe7, 0x3e,
  0xd0, 0x75, 0x13, 0x3e, 0x91, 0xa7, 0x6b, 0x3e, 0xdf, 0x01, 0x8c, 0x3e,
  0x12, 0x7c, 0x9e, 0x3e, 0x48, 0x42, 0x24, 0xbd, 0x7a, 0xba, 0xcd, 0x3e,
  0x59, 0x9f, 0x26, 0x3e, 0x14, 0xb6, 0xbc, 0x3e, 0x74, 0xa3, 0x27, 0x3f,
  0x25, 0xd0, 0xf2, 0x3e, 0xf0, 0x56, 0xa0, 0x3c, 0x1f, 0x37, 0xc5, 0x3d,
  0x66, 0xa2, 0x15, 0xbe, 0xf7, 0xc4, 0xa0, 0xbe, 0x06, 0x29, 0x6b, 0xbe,
  0x0b, 0xc6, 0xdd, 0xbd, 0x24, 0x00, 0xb7, 0x3e, 0x2f, 0xeb, 0x8f, 0xbe,
  0x7f, 0x66, 0x98, 0xbe, 0x9c, 0xe5, 0x43, 0x3e, 0x90, 0x74, 0xc7, 0x3e,
  0x10, 0xad, 0xee, 0x3d, 0xf7, 0x7b, 0xf7, 0x3e, 0xbf, 0x11, 0xbc, 0x3e,
  0x63, 0x5e, 0x0a, 0x3d, 0x6a, 0xbc, 0xbe, 0xbe, 0xd5, 0xfe, 0xdd, 0xbc,
  0x37, 0xcb, 0x1c, 0xbf, 0xed, 0x6d, 0xe5, 0x3e, 0x7b, 0x41, 0xbb, 0x3e,
  0xdc, 0x86, 0x53, 0x3e, 0x0e, 0xaa, 0xcd, 0x3d, 0x1e, 0xcf, 0x71, 0x3e,
  0xd6, 0x50, 0x4f, 0x3b, 0x1d, 0xc4, 0xbe, 0x3d, 0x64, 0x37, 0x18, 0x3e,
  0x69, 0x8d, 0x94, 0x3e, 0x89, 0x82, 0x00, 0x3f, 0xb0, 0xdb, 0x9d, 0xbe,
  0xc9, 0x8d, 0xcf, 0xbe, 0x50, 0x8e, 0x42, 0x3e, 0x7e, 0xdd, 0xfa, 0xbe,
  0xc9, 0xc6, 0x31, 0xbf, 0x0a, 0xca, 0x20, 0xbd, 0x11, 0x18, 0x1d, 0xbf,
  0xa6, 0x66, 0xa8, 0xbe, 0x0b, 0xed, 0x32, 0xbf, 0x06, 0x9d, 0xc9, 0x3c,
  0x3a, 0x5e, 0x23, 0xbf, 0x9c, 0x11, 0xd9, 0xbe, 0x17, 0x60, 0xfc, 0xbe,
  0xd8, 0xe5, 0xf5, 0xbe, 0x9b, 0xe8, 0x07, 0xbd, 0x4d, 0x8b, 0x2a, 0xbe,
  0x54, 0xa5, 0xa4, 0xbe, 0x70, 0xa1, 0xab, 0x3e, 0x90, 0x3d, 0x6e, 0xbe,
  0x7e, 0x92, 0xa4, 0xbe, 0x32, 0x6d, 0x9d, 0xbd, 0x4b, 0xb0, 0x03, 0xbf,
  0xf0, 0x0f, 0xc5, 0xbe, 0xda, 0x1a, 0xc0, 0xbe, 0x0d, 0x56, 0x1c, 0xbf,
  0x57, 0xc5, 0x30, 0xbe, 0xab, 0x9e, 0x1d, 0xbf, 0x73, 0x31, 0x28, 0x3d,
  0xb4, 0x65, 0x33, 0xbf, 0x8e, 0x0b, 0x5d, 0xbe, 0x70, 0x86, 0x1c, 0xbf,
  0x6f, 0xc5, 0x42, 0xbe, 0x46, 0xbd, 0xa4, 0x3e, 0xc9, 0x96, 0x14, 0xbf,
  0xcd, 0xfb, 0x14, 0xbf, 0x90, 0xf4, 0xbc, 0xbe, 0xd5, 0x26, 0x11, 0x3e,
  0x49, 0x66, 0xf4, 0xbe, 0xd9, 0x43, 0xdd, 0xbd, 0x61, 0x0f, 0x7e, 0x3d,
  0x61, 0xf6, 0xec, 0xbd, 0x13, 0xf8, 0x91, 0xbe, 0xd6, 0x5b, 0x04, 0xbd,
  0x50, 0x4b, 0xf7, 0xbe, 0x5a, 0x5a, 0x36, 0xbd, 0xd1, 0xdc, 0xa8, 0xbe,
  0xa0, 0x95, 0xad, 0xbe, 0xf8, 0x66, 0x85, 0xbe, 0xf6, 0x44, 0x78, 0xbe,
  0x04, 0x44, 0xd1, 0xbc, 0xb8, 0x90, 0xdf, 0x3e, 0xe3, 0x58, 0x31, 0x3c,
  0xa5, 0xd8, 0x77, 0xbe, 0xd3, 0xb8, 0x1e, 0xbe, 0x6e, 0xa3, 0x0b, 0xbf,
  0x77, 0x6a, 0x6b, 0x3e, 0x4b, 0xcb, 0x93, 0x3e, 0x4f, 0x80, 0xc8, 0xbe,
  0x62, 0x08, 0xc4, 0x3e, 0xd2, 0xba, 0xc1, 0x3e, 0xbe, 0x81, 0xa4, 0xbe,
  0xb0, 0x52, 0x6d, 0x3d, 0x30, 0x06, 0xe2, 0xbd, 0xae, 0xb0, 0x1f, 0xbe,
  0xbb, 0xdd, 0x92, 0x3d, 0x4b, 0x3e, 0x83, 0xbd, 0x2b, 0xee, 0x26, 0x3e,
  0x93, 0x95, 0xa1, 0xbe, 0xed, 0x10, 0xb5, 0x3e, 0xc0, 0xe9, 0xbd, 0x3e,
  0x5e, 0x0e, 0xf2, 0xbe, 0x8b, 0x5a, 0xc0, 0xbe, 0xc9, 0x27, 0xa6, 0xbe,
  0x2d, 0xde, 0xc3, 0x3b, 0x09, 0x68, 0xff, 0x3d, 0x7e, 0x0a, 0x07, 0xbf,
  0x97, 0x24, 0x5b, 0x3e, 0xd0, 0x64, 0xa8, 0xbd, 0xea, 0xfe, 0x9f, 0xbb,
  0xc9, 0xcc, 0x04, 0xbf, 0x1f, 0x1f, 0x75, 0x3e, 0x68, 0x50, 0x02, 0x3f,
  0xd5, 0x85, 0x04, 0xbe, 0x9a, 0x47, 0x6c, 0xbe, 0x07, 0xdb, 0x55, 0xbe,
  0x44, 0x11, 0x50, 0x3d, 0x5b, 0xf4, 0x05, 0xbe, 0xcb, 0x05, 0x47, 0xbe,
  0x09, 0xd0, 0x6f, 0x3d, 0x3b, 0x5b, 0xb7, 0x3e, 0xe0, 0xd7, 0x93, 0x3e,
  0x10, 0x14, 0x8f, 0x3e, 0x7a, 0x31, 0x12, 0xbe, 0xb1, 0x8e, 0x19, 0xbd,
  0x75, 0xab, 0x18, 0xbd, 0x4c, 0x5e, 0xbd, 0xbd, 0xc1, 0xd4, 0xed, 0xbe,
  0xab, 0x2e, 0x10, 0xbe, 0x4c, 0x59, 0x81, 0xbd, 0xcc, 0x12, 0x42, 0x3e,
  0x35, 0x1e, 0xc4, 0xbe, 0x52, 0x51, 0xb0, 0xbd, 0x4d, 0xe8, 0x5e, 0x3e,
  0x12, 0x6f, 0xd5, 0x3d, 0x97, 0x6a, 0x28, 0xbe, 0xf7, 0xc8, 0x92, 0xbe,
  0x7f, 0x09, 0x52, 0xbe, 0xe4, 0x6e, 0x1d, 0x3e, 0x50, 0xdc, 0x64, 0xbe,
  0x86, 0xf1, 0x15, 0x3e, 0x88, 0xb8, 0x4d, 0x3e, 0x5f, 0xb9, 0x1b, 0x3d,
  0xee, 0xb6, 0x63, 0xbe, 0x8e, 0x81, 0x23, 0xbe, 0x26, 0x98, 0xec, 0x3d,
  0x67, 0xa5, 0x7c, 0x3e, 0x36, 0x73, 0x97, 0xbd, 0xeb, 0xee, 0x28, 0xbe,
  0x8c, 0x9b, 0x57, 0x3e, 0x7f, 0x7c, 0x24, 0xbe, 0x9c, 0x5f, 0x2c, 0x3e,
  0x61, 0xf1, 0xe4, 0x3e, 0x38, 0xc9, 0x8f, 0x3e, 0xd7, 0x16, 0x2d, 0x3d,
  0x4a, 0x70, 0xcd, 0xbe, 0xe5, 0x62, 0x05, 0xbe, 0x7b, 0xa3, 0x14, 0xbf,
  0x31, 0x3b, 0x8d, 0xbe, 0x72, 0xee, 0x39, 0xbf, 0xeb, 0xac, 0x3a, 0xbf,
  0x91, 0xd9, 0x06, 0x3e, 0x65, 0xfc, 0xa5, 0x3e, 0x7c, 0x88, 0xa5, 0xbe,
  0xfc, 0x3c, 0x33, 0x3e, 0x35, 0xb4, 0xfa, 0xbe, 0x2e, 0x3e, 0x0b, 0xbf,
  0x68, 0x88, 0x0b, 0xbe, 0xf5, 0xe9, 0xda, 0xbe, 0x01, 0x1f, 0xaa, 0x3e,
  0x19, 0x42, 0xbb, 0x3e, 0x5c, 0x4e, 0x90, 0xbe, 0x55, 0xa7, 0x87, 0xbe,
  0xb3, 0xae, 0x4d, 0x3d, 0x97, 0x33, 0x8e, 0xbe, 0xd4, 0x8b, 0xc5, 0x3e,
  0x95, 0xf1, 0x82, 0x3e, 0x24, 0x7a, 0x01, 0x3f, 0x57, 0xe9, 0xb6, 0x3d,
  0x2e, 0x3a, 0x8c, 0x3e, 0x03, 0xb1, 0x73, 0xbe, 0xee, 0xf5, 0xc4, 0x3d,
  0x8a, 0xfc, 0xff, 0xff, 0x04, 0x00, 0x00, 0x00, 0x00, 0x02, 0x00, 0x00,
  0x38, 0x64, 0x71, 0xbe, 0x2f, 0x92, 0x80, 0xbe, 0x7d, 0x2a, 0x8a, 0xbe,
  0x2e, 0x24, 0x98, 0xbe, 0xcd, 0x8b, 0x37, 0xbd, 0xf0, 0xc6, 0xce, 0xbe,
  0x51, 0x2c, 0x9e, 0xbe, 0x60, 0xd8, 0x9e, 0x3e, 0x6c, 0x3d, 0x55, 0x3e,
  0xcd, 0x6b, 0xc2, 0xbc, 0xc8, 0x4d, 0x00, 0xbf, 0x3f, 0xf3, 0x09, 0x3e,
  0xfa, 0xca, 0xa0, 0x3e, 0x1f, 0x3b, 0x0d, 0x3e, 0x8f, 0xc8, 0x62, 0xbd,
  0xfd, 0x47, 0xfa, 0xbe, 0x4a, 0xe5, 0x25, 0x3f, 0x36, 0xc4, 0x3b, 0xbe,
  0xf8, 0x82, 0xd2, 0x3e, 0x8f, 0xc0, 0x15, 0xbe, 0x56, 0x60, 0x23, 0xbd,
  0x93, 0xb8, 0xca, 0x3d, 0x4d, 0x21, 0x34, 0x3f, 0x08, 0x58, 0x3e, 0x3f,
  0x52, 0x8a, 0x2b, 0x3f, 0x94, 0x6d, 0xff, 0x3e, 0x88, 0x1b, 0x97, 0x3d,
  0xaa, 0x61, 0xaf, 0xbd, 0xb9, 0xd8, 0x02, 0x3f, 0x02, 0xee, 0x9b, 0xbe,
  0x02, 0x25, 0x1c, 0x3f, 0xdf, 0x7b, 0xd5, 0xbe, 0xe5, 0xfe, 0x9b, 0x3e,
  0x13, 0xa0, 0x76, 0xbe, 0x37, 0x4d, 0xc1, 0xbe, 0x01, 0x11, 0x8e, 0xbe,
  0x8c, 0x37, 0x07, 0x3f, 0x29, 0x4e, 0x89, 0x3c, 0xee, 0x9c, 0x20, 0xbf,
  0x5f, 0x55, 0xbf, 0xbd, 0x2b, 0xca, 0x06, 0xbd, 0x73, 0xf6, 0x1a, 0xbe,
  0x89, 0xa7, 0xbd, 0x3e, 0x0f, 0x57, 0x08, 0x3f, 0x73, 0xa9, 0x81, 0xbe,
  0x87, 0x79, 0x77, 0xbd, 0x68, 0xdf, 0xcc, 0x3c, 0x14, 0xe1, 0x5c, 0x3e,
  0x94, 0x0b, 0x36, 0xbe, 0x6b, 0xec, 0x07, 0x3f, 0xcd, 0x05, 0x94, 0xbd,
  0xbb, 0xde, 0x19, 0xbf, 0x9a, 0x0c, 0x8b, 0xbe, 0x3d, 0x1e, 0xfc, 0xbd,
  0x50, 0x8f, 0x1b, 0x3f, 0x0f, 0xdd, 0x0d, 0x3f, 0x0f, 0xf1, 0x1b, 0x3f,
  0x22, 0x8f, 0xf5, 0xbd, 0x08, 0x8e, 0x7d, 0x3e, 0xa9, 0x4e, 0x90, 0xbe,
  0x89, 0x7b, 0x34, 0x3d, 0xbd, 0xe8, 0xef, 0xbd, 0xa9, 0x0e, 0xb7, 0x3e,
  0xe9, 0xa0, 0xe7, 0xbd, 0xd0, 0xb8, 0x40, 0x3e, 0xef, 0x8c, 0x8a, 0x3e,
  0x26, 0x2e, 0xb6, 0x3e, 0x76, 0x44, 0x1d, 0xbe, 0x53, 0xb7, 0xe7, 0xbe,
  0x18, 0x4b, 0xdb, 0x3e, 0xac, 0x30, 0x9b, 0xbe, 0x8d, 0x4d, 0x1a, 0xbe,
  0xd7, 0x66, 0x3f, 0x3e, 0xde, 0xb8, 0xed, 0x3d, 0x6a, 0x07, 0xd7, 0xbe,
  0xb4, 0x33, 0x0f, 0xbd, 0x15, 0xe9, 0x4f, 0xbe, 0x01, 0x16, 0x42, 0x3e,
  0x0e, 0x66, 0xd8, 0xbd, 0x76, 0x6c, 0x45, 0x3e, 0xd2, 0x90, 0x8a, 0x3e,
  0x7c, 0x89, 0xbd, 0xbe, 0x56, 0x8b, 0x57, 0x3e, 0x2a, 0xb7, 0x99, 0xbe,
  0x65, 0x5f, 0xcc, 0x3e, 0xdf, 0x22, 0x24, 0xbe, 0x7a, 0x85, 0x33, 0x3f,
  0xaa, 0x5a, 0x17, 0x3f, 0xc1, 0x15, 0x94, 0x3e, 0x1e, 0x60, 0x92, 0xbd,
  0xc1, 0xd2, 0xfa, 0x3d, 0x91, 0xf4, 0xfc, 0x3e, 0xbf, 0x99, 0x52, 0x3e,
  0xa7, 0x52, 0x98, 0xbd, 0xed, 0x6d, 0x28, 0x3f, 0x6a, 0x4e, 0xb5, 0xbe,
  0x59, 0x8d, 0x3c, 0x3e, 0x13, 0xcd, 0xc8, 0x3e, 0xbc, 0x75, 0x53, 0xbc,
  0x48, 0x48, 0x3f, 0x3f, 0xdd, 0x23, 0xd4, 0xbd, 0x6d, 0x03, 0xb5, 0xbe,
  0xe0, 0x8a, 0xc4, 0x3e, 0x92, 0xa4, 0x1c, 0x3e, 0x46, 0xd1, 0x23, 0x3f,
  0x5a, 0x86, 0x1c, 0xbe, 0xcb, 0x9f, 0x48, 0xbe, 0x41, 0x6b, 0x3a, 0x3e,
  0xe6, 0x37, 0x09, 0x3d, 0x28, 0xbc, 0x90, 0x3d, 0x92, 0x03, 0x89, 0xbd,
  0x85, 0x8d, 0x92, 0x3e, 0x4b, 0xe7, 0x0b, 0x3c, 0x39, 0xad, 0xb1, 0xbd,
  0x4c, 0x2b, 0xf1, 0x3e, 0x4c, 0x89, 0xc0, 0x3e, 0x56, 0xe8, 0x1f, 0x3f,
  0xab, 0x25, 0xec, 0x3e, 0xc1, 0x2a, 0xdd, 0xbd, 0x26, 0x85, 0x46, 0xbf,
  0x2a, 0xe1, 0xae, 0xbe, 0x8e, 0xab, 0x02, 0x3f, 0x26, 0xf1, 0x72, 0xbe,
  0x99, 0xa5, 0x4b, 0x3f, 0x94, 0xcd, 0xcf, 0x3d, 0x88, 0x37, 0x79, 0xbe,
  0x38, 0x1b, 0x37, 0xbe, 0x30, 0x19, 0x10, 0xbe, 0x96, 0xfe, 0xff, 0xff,
  0x04, 0x00, 0x00, 0x00, 0x80, 0x00, 0x00, 0x00, 0xba, 0x28, 0x33, 0xbf,
  0x39, 0xf4, 0x4c, 0xbf, 0x1c, 0xab, 0x66, 0xbe, 0x5a, 0x78, 0x55, 0xbf,
  0xb6, 0x9b, 0x67, 0x3e, 0xed, 0x93, 0xc0, 0xbe, 0x1c, 0x1e, 0x72, 0xbf,
  0xc6, 0xd0, 0x2b, 0xbf, 0x65, 0xde, 0xe7, 0xbe, 0xb9, 0x4e, 0x80, 0x3f,
  0xa8, 0x70, 0x9a, 0xbf, 0x60, 0xe9, 0x61, 0x3f, 0x9c, 0xf8, 0x25, 0xbf,
  0x14, 0xe2, 0xdd, 0x3d, 0x2a, 0x2d, 0x33, 0x3f, 0xfa, 0x7e, 0x84, 0xbf,
  0xaf, 0xb6, 0x2f, 0xbf, 0x3b, 0x12, 0xfc, 0x3e, 0xa4, 0x9a, 0x6b, 0x3f,
  0xe5, 0x49, 0x72, 0xbf, 0xa9, 0xc5, 0xec, 0x3e, 0x1b, 0x36, 0x6a, 0x3e,
  0x6f, 0x7c, 0x38, 0xbf, 0x8e, 0xc9, 0x39, 0x3e, 0xf6, 0x06, 0x17, 0x3f,
  0x37, 0xda, 0xcb, 0x3d, 0x38, 0xfa, 0x03, 0xbe, 0x68, 0x31, 0x3f, 0x3e,
  0xae, 0x2d, 0x85, 0xbe, 0x33, 0x07, 0x9f, 0xbf, 0x3c, 0xfe, 0x67, 0x3f,
  0xea, 0x33, 0x1c, 0x3d, 0x22, 0xff, 0xff, 0xff, 0x04, 0x00, 0x00, 0x00,
  0x10, 0x00, 0x00, 0x00, 0x55, 0x13, 0x5a, 0xbe, 0x12, 0xce, 0xd9, 0x3d,
  0xc2, 0x72, 0xaa, 0x3e, 0x8e, 0xe7, 0x94, 0xbe, 0x3e, 0xff, 0xff, 0xff,
  0x04, 0x00, 0x00, 0x00, 0x20, 0x00, 0x00, 0x00, 0x31, 0xfe, 0x8b, 0xbd,
  0x83, 0xc9, 0x82, 0x3e, 0xd3, 0x5b, 0xd8, 0x3e, 0xba, 0x7a, 0x4d, 0x3e,
  0xba, 0xfe, 0xf0, 0x3d, 0xa9, 0x64, 0x05, 0x3f, 0x74, 0x84, 0x0d, 0xbe,
  0x2b, 0xe8, 0xb2, 0x3e, 0x78, 0xfa, 0xff, 0xff, 0x7c, 0xfa, 0xff, 0xff,
  0x0f, 0x00, 0x00, 0x00, 0x4d, 0x4c, 0x49, 0x52, 0x20, 0x43, 0x6f, 0x6e,
  0x76, 0x65, 0x72, 0x74, 0x65, 0x64, 0x2e, 0x00, 0x01, 0x00, 0x00, 0x00,
  0x14, 0x00, 0x00, 0x00, 0x00, 0x00, 0x0e, 0x00, 0x18, 0x00, 0x14, 0x00,
  0x10, 0x00, 0x0c, 0x00, 0x08, 0x00, 0x04, 0x00, 0x0e, 0x00, 0x00, 0x00,
  0x14, 0x00, 0x00, 0x00, 0x1c, 0x00, 0x00, 0x00, 0x24, 0x01, 0x00, 0x00,
  0x28, 0x01, 0x00, 0x00, 0x2c, 0x01, 0x00, 0x00, 0x04, 0x00, 0x00, 0x00,
  0x6d, 0x61, 0x69, 0x6e, 0x00, 0x00, 0x00, 0x00, 0x04, 0x00, 0x00, 0x00,
  0xcc, 0x00, 0x00, 0x00, 0x84, 0x00, 0x00, 0x00, 0x50, 0x00, 0x00, 0x00,
  0x14, 0x00, 0x00, 0x00, 0x00, 0x00, 0x0e, 0x00, 0x1a, 0x00, 0x14, 0x00,
  0x10, 0x00, 0x0c, 0x00, 0x0b, 0x00, 0x04, 0x00, 0x0e, 0x00, 0x00, 0x00,
  0x1c, 0x00, 0x00, 0x00, 0x00, 0x00, 0x00, 0x09, 0x1c, 0x00, 0x00, 0x00,
  0x20, 0x00, 0x00, 0x00, 0x01, 0x00, 0x00, 0x00, 0x00, 0x00, 0x06, 0x00,
  0x08, 0x00, 0x04, 0x00, 0x06, 0x00, 0x00, 0x00, 0x00, 0x00, 0x80, 0x3f,
  0x01, 0x00, 0x00, 0x00, 0x0a, 0x00, 0x00, 0x00, 0x01, 0x00, 0x00, 0x00,
  0x09, 0x00, 0x00, 0x00, 0x9a, 0xff, 0xff, 0xff, 0x10, 0x00, 0x00, 0x00,
  0x00, 0x00, 0x00, 0x08, 0x0c, 0x00, 0x00, 0x00, 0x10, 0x00, 0x00, 0x00,
  0x40, 0xfb, 0xff, 0xff, 0x01, 0x00, 0x00, 0x00, 0x09, 0x00, 0x00, 0x00,
  0x03, 0x00, 0x00, 0x00, 0x08, 0x00, 0x00, 0x00, 0x03, 0x00, 0x00, 0x00,
  0x02, 0x00, 0x00, 0x00, 0xca, 0xff, 0xff, 0xff, 0x10, 0x00, 0x00, 0x00,
  0x00, 0x00, 0x00, 0x08, 0x10, 0x00, 0x00, 0x00, 0x14, 0x00, 0x00, 0x00,
  0xba, 0xff, 0xff, 0xff, 0x00, 0x00, 0x00, 0x01, 0x01, 0x00, 0x00, 0x00,
  0x08, 0x00, 0x00, 0x00, 0x03, 0x00, 0x00, 0x00, 0x07, 0x00, 0x00, 0x00,
  0x04, 0x00, 0x00, 0x00, 0x01, 0x00, 0x00, 0x00, 0x00, 0x00, 0x0e, 0x00,
  0x16, 0x00, 0x00, 0x00, 0x10, 0x00, 0x0c, 0x00, 0x0b, 0x00, 0x04, 0x00,
  0x0e, 0x00, 0x00, 0x00, 0x18, 0x00, 0x00, 0x00, 0x00, 0x00, 0x00, 0x08,
  0x18, 0x00, 0x00, 0x00, 0x1c, 0x00, 0x00, 0x00, 0x00, 0x00, 0x06, 0x00,
  0x08, 0x00, 0x07, 0x00, 0x06, 0x00, 0x00, 0x00, 0x00, 0x00, 0x00, 0x01,
  0x01, 0x00, 0x00, 0x00, 0x07, 0x00, 0x00, 0x00, 0x03, 0x00, 0x00, 0x00,
  0x00, 0x00, 0x00, 0x00, 0x05, 0x00, 0x00, 0x00, 0x06, 0x00, 0x00, 0x00,
  0x01, 0x00, 0x00, 0x00, 0x0a, 0x00, 0x00, 0x00, 0x01, 0x00, 0x00, 0x00,
  0x00, 0x00, 0x00, 0x00, 0x0b, 0x00, 0x00, 0x00, 0xe8, 0x03, 0x00, 0x00,
  0x94, 0x03, 0x00, 0x00, 0x40, 0x03, 0x00, 0x00, 0x00, 0x03, 0x00, 0x00,
  0xc0, 0x02, 0x00, 0x00, 0x74, 0x02, 0x00, 0x00, 0x10, 0x02, 0x00, 0x00,
  0x7c, 0x01, 0x00, 0x00, 0xe0, 0x00, 0x00, 0x00, 0x60, 0x00, 0x00, 0x00,
  0x04, 0x00, 0x00, 0x00, 0x5a, 0xfc, 0xff, 0xff, 0x00, 0x00, 0x00, 0x01,
  0x14, 0x00, 0x00, 0x00, 0x1c, 0x00, 0x00, 0x00, 0x1c, 0x00, 0x00, 0x00,
  0x0b, 0x00, 0x00, 0x00, 0x34, 0x00, 0x00, 0x00, 0x02, 0x00, 0x00, 0x00,
  0xff, 0xff, 0xff, 0xff, 0x04, 0x00, 0x00, 0x00, 0x44, 0xfc, 0xff, 0xff,
  0x1b, 0x00, 0x00, 0x00, 0x53, 0x74, 0x61, 0x74, 0x65, 0x66, 0x75, 0x6c,
  0x50, 0x61, 0x72, 0x74, 0x69, 0x74, 0x69, 0x6f, 0x6e, 0x65, 0x64, 0x43,
  0x61, 0x6c, 0x6c, 0x5f, 0x31, 0x3a, 0x30, 0x00, 0x02, 0x00, 0x00, 0x00,
  0x01, 0x00, 0x00, 0x00, 0x04, 0x00, 0x00, 0x00, 0xb2, 0xfc, 0xff, 0xff,
  0x00, 0x00, 0x00, 0x01, 0x14, 0x00, 0x00, 0x00, 0x1c, 0x00, 0x00, 0x00,
  0x1c, 0x00, 0x00, 0x00, 0x0a, 0x00, 0x00, 0x00, 0x58, 0x00, 0x00, 0x00,
  0x02, 0x00, 0x00, 0x00, 0xff, 0xff, 0xff, 0xff, 0x04, 0x00, 0x00, 0x00,
  0x9c, 0xfc, 0xff, 0xff, 0x3c, 0x00, 0x00, 0x00, 0x73, 0x65, 0x71, 0x75,
  0x65, 0x6e, 0x74, 0x69, 0x61, 0x6c, 0x5f, 0x31, 0x2f, 0x64, 0x65, 0x6e,
  0x73, 0x65, 0x5f, 0x32, 0x5f, 0x31, 0x2f, 0x4d, 0x61, 0x74, 0x4d, 0x75,
  0x6c, 0x3b, 0x73, 0x65, 0x71, 0x75, 0x65, 0x6e, 0x74, 0x69, 0x61, 0x6c,
  0x5f, 0x31, 0x2f, 0x64, 0x65, 0x6e, 0x73, 0x65, 0x5f, 0x32, 0x5f, 0x31,
  0x2f, 0x42, 0x69, 0x61, 0x73, 0x41, 0x64, 0x64, 0x00, 0x00, 0x00, 0x00,
  0x02, 0x00, 0x00, 0x00, 0x01, 0x00, 0x00, 0x00, 0x04, 0x00, 0x00, 0x00,
  0x2e, 0xfd, 0xff, 0xff, 0x00, 0x00, 0x00, 0x01, 0x14, 0x00, 0x00, 0x00,
  0x1c, 0x00, 0x00, 0x00, 0x1c, 0x00, 0x00, 0x00, 0x09, 0x00, 0x00, 0x00,
  0x74, 0x00, 0x00, 0x00, 0x02, 0x00, 0x00, 0x00, 0xff, 0xff, 0xff, 0xff,
  0x08, 0x00, 0x00, 0x00, 0x18, 0xfd, 0xff, 0xff, 0x58, 0x00, 0x00, 0x00,
  0x73, 0x65, 0x71, 0x75, 0x65, 0x6e, 0x74, 0x69, 0x61, 0x6c, 0x5f, 0x31,
  0x2f, 0x64, 0x65, 0x6e, 0x73, 0x65, 0x5f, 0x31, 0x5f, 0x32, 0x2f, 0x4d,
  0x61, 0x74, 0x4d, 0x75, 0x6c, 0x3b, 0x73, 0x65, 0x71, 0x75, 0x65, 0x6e,
  0x74, 0x69, 0x61, 0x6c, 0x5f, 0x31, 0x2f, 0x64, 0x65, 0x6e, 0x73, 0x65,
  0x5f, 0x31, 0x5f, 0x32, 0x2f, 0x52, 0x65, 0x6c, 0x75, 0x3b, 0x73, 0x65,
  0x71, 0x75, 0x65, 0x6e, 0x74, 0x69, 0x61, 0x6c, 0x5f, 0x31, 0x2f, 0x64,
  0x65, 0x6e, 0x73, 0x65, 0x5f, 0x31, 0x5f, 0x32, 0x2f, 0x42, 0x69, 0x61,
  0x73, 0x41, 0x64, 0x64, 0x00, 0x00, 0x00, 0x00, 0x02, 0x00, 0x00, 0x00,
  0x01, 0x00, 0x00, 0x00, 0x08, 0x00, 0x00, 0x00, 0xc6, 0xfd, 0xff, 0xff,
  0x00, 0x00, 0x00, 0x01, 0x14, 0x00, 0x00, 0x00, 0x1c, 0x00, 0x00, 0x00,
  0x1c, 0x00, 0x00, 0x00, 0x08, 0x00, 0x00, 0x00, 0x6c, 0x00, 0x00, 0x00,
  0x02, 0x00, 0x00, 0x00, 0xff, 0xff, 0xff, 0xff, 0x10, 0x00, 0x00, 0x00,
  0xb0, 0xfd, 0xff, 0xff, 0x52, 0x00, 0x00, 0x00, 0x73, 0x65, 0x71, 0x75,
  0x65, 0x6e, 0x74, 0x69, 0x61, 0x6c, 0x5f, 0x31, 0x2f, 0x64, 0x65, 0x6e,
  0x73, 0x65, 0x5f, 0x31, 0x2f, 0x4d, 0x61, 0x74, 0x4d, 0x75, 0x6c, 0x3b,
  0x73, 0x65, 0x71, 0x75, 0x65, 0x6e, 0x74, 0x69, 0x61, 0x6c, 0x5f, 0x31,
  0x2f, 0x64, 0x65, 0x6e, 0x73, 0x65, 0x5f, 0x31, 0x2f, 0x52, 0x65, 0x6c,
  0x75, 0x3b, 0x73, 0x65, 0x71, 0x75, 0x65, 0x6e, 0x74, 0x69, 0x61, 0x6c,
  0x5f, 0x31, 0x2f, 0x64, 0x65, 0x6e, 0x73, 0x65, 0x5f, 0x31, 0x2f, 0x42,
  0x69, 0x61, 0x73, 0x41, 0x64, 0x64, 0x00, 0x00, 0x02, 0x00, 0x00, 0x00,
  0x01, 0x00, 0x00, 0x00, 0x10, 0x00, 0x00, 0x00, 0xa6, 0xfe, 0xff, 0xff,
  0x00, 0x00, 0x00, 0x01, 0x10, 0x00, 0x00, 0x00, 0x10, 0x00, 0x00, 0x00,
  0x07, 0x00, 0x00, 0x00, 0x44, 0x00, 0x00, 0x00, 0x30, 0xfe, 0xff, 0xff,
  0x36, 0x00, 0x00, 0x00, 0x73, 0x65, 0x71, 0x75, 0x65, 0x6e, 0x74, 0x69,
  0x61, 0x6c, 0x5f, 0x31, 0x2f, 0x64, 0x65, 0x6e, 0x73, 0x65, 0x5f, 0x31,
  0x2f, 0x52, 0x65, 0x6c, 0x75, 0x3b, 0x73, 0x65, 0x71, 0x75, 0x65, 0x6e,
  0x74, 0x69, 0x61, 0x6c, 0x5f, 0x31, 0x2f, 0x64, 0x65, 0x6e, 0x73, 0x65,
  0x5f, 0x31, 0x2f, 0x42, 0x69, 0x61, 0x73, 0x41, 0x64, 0x64, 0x00, 0x00,
  0x01, 0x00, 0x00, 0x00, 0x10, 0x00, 0x00, 0x00, 0x06, 0xff, 0xff, 0xff,
  0x00, 0x00, 0x00, 0x01, 0x10, 0x00, 0x00, 0x00, 0x10, 0x00, 0x00, 0x00,
  0x06, 0x00, 0x00, 0x00, 0x28, 0x00, 0x00, 0x00, 0x90, 0xfe, 0xff, 0xff,
  0x1b, 0x00, 0x00, 0x00, 0x73, 0x65, 0x71, 0x75, 0x65, 0x6e, 0x74, 0x69,
  0x61, 0x6c, 0x5f, 0x31, 0x2f, 0x64, 0x65, 0x6e, 0x73, 0x65, 0x5f, 0x31,
  0x2f, 0x4d, 0x61, 0x74, 0x4d, 0x75, 0x6c, 0x00, 0x02, 0x00, 0x00, 0x00,
  0x10, 0x00, 0x00, 0x00, 0x0f, 0x00, 0x00, 0x00, 0x4e, 0xff, 0xff, 0xff,
  0x00, 0x00, 0x00, 0x01, 0x10, 0x00, 0x00, 0x00, 0x10, 0x00, 0x00, 0x00,
  0x05, 0x00, 0x00, 0x00, 0x1c, 0x00, 0x00, 0x00, 0xd8, 0xfe, 0xff, 0xff,
  0x0f, 0x00, 0x00, 0x00, 0x61, 0x72, 0x69, 0x74, 0x68, 0x2e, 0x63, 0x6f,
  0x6e, 0x73, 0x74, 0x61, 0x6e, 0x74, 0x33, 0x00, 0x02, 0x00, 0x00, 0x00,
  0x08, 0x00, 0x00, 0x00, 0x10, 0x00, 0x00, 0x00, 0x8a, 0xff, 0xff, 0xff,
  0x00, 0x00, 0x00, 0x01, 0x10, 0x00, 0x00, 0x00, 0x10, 0x00, 0x00, 0x00,
  0x04, 0x00, 0x00, 0x00, 0x1c, 0x00, 0x00, 0x00, 0x14, 0xff, 0xff, 0xff,
  0x0f, 0x00, 0x00, 0x00, 0x61, 0x72, 0x69, 0x74, 0x68, 0x2e, 0x63, 0x6f,
  0x6e, 0x73, 0x74, 0x61, 0x6e, 0x74, 0x32, 0x00, 0x02, 0x00, 0x00, 0x00,
  0x04, 0x00, 0x00, 0x00, 0x08, 0x00, 0x00, 0x00, 0xc6, 0xff, 0xff, 0xff,
  0x00, 0x00, 0x00, 0x01, 0x10, 0x00, 0x00, 0x00, 0x10, 0x00, 0x00, 0x00,
  0x03, 0x00, 0x00, 0x00, 0x1c, 0x00, 0x00, 0x00, 0x50, 0xff, 0xff, 0xff,
  0x0f, 0x00, 0x00, 0x00, 0x61, 0x72, 0x69, 0x74, 0x68, 0x2e, 0x63, 0x6f,
  0x6e, 0x73, 0x74, 0x61, 0x6e, 0x74, 0x31, 0x00, 0x01, 0x00, 0x00, 0x00,
  0x04, 0x00, 0x00, 0x00, 0x00, 0x00, 0x16, 0x00, 0x18, 0x00, 0x14, 0x00,
  0x00, 0x00, 0x10, 0x00, 0x0c, 0x00, 0x08, 0x00, 0x00, 0x00, 0x00, 0x00,
  0x00, 0x00, 0x07, 0x00, 0x16, 0x00, 0x00, 0x00, 0x00, 0x00, 0x00, 0x01,
  0x10, 0x00, 0x00, 0x00, 0x10, 0x00, 0x00, 0x00, 0x02, 0x00, 0x00, 0x00,
  0x1c, 0x00, 0x00, 0x00, 0xa0, 0xff, 0xff, 0xff, 0x0e, 0x00, 0x00, 0x00,
  0x61, 0x72, 0x69, 0x74, 0x68, 0x2e, 0x63, 0x6f, 0x6e, 0x73, 0x74, 0x61,
  0x6e, 0x74, 0x00, 0x00, 0x01, 0x00, 0x00, 0x00, 0x08, 0x00, 0x00, 0x00,
  0x00, 0x00, 0x16, 0x00, 0x1c, 0x00, 0x18, 0x00, 0x00, 0x00, 0x14, 0x00,
  0x10, 0x00, 0x0c, 0x00, 0x00, 0x00, 0x00, 0x00, 0x08, 0x00, 0x07, 0x00,
  0x16, 0x00, 0x00, 0x00, 0x00, 0x00, 0x00, 0x01, 0x14, 0x00, 0x00, 0x00,
  0x20, 0x00, 0x00, 0x00, 0x20, 0x00, 0x00, 0x00, 0x01, 0x00, 0x00, 0x00,
  0x3c, 0x00, 0x00, 0x00, 0x02, 0x00, 0x00, 0x00, 0xff, 0xff, 0xff, 0xff,
  0x0f, 0x00, 0x00, 0x00, 0x04, 0x00, 0x04, 0x00, 0x04, 0x00, 0x00, 0x00,
  0x1d, 0x00, 0x00, 0x00, 0x73, 0x65, 0x72, 0x76, 0x69, 0x6e, 0x67, 0x5f,
  0x64, 0x65, 0x66, 0x61, 0x75, 0x6c, 0x74, 0x5f, 0x69, 0x6e, 0x70, 0x75,
  0x74, 0x5f, 0x6c, 0x61, 0x79, 0x65, 0x72, 0x3a, 0x30, 0x00, 0x00, 0x00,
  0x02, 0x00, 0x00, 0x00, 0x01, 0x00, 0x00, 0x00, 0x0f, 0x00, 0x00, 0x00,
  0x02, 0x00, 0x00, 0x00, 0x20, 0x00, 0x00, 0x00, 0x04, 0x00, 0x00, 0x00,
  0xf4, 0xff, 0xff, 0xff, 0x19, 0x00, 0x00, 0x00, 0x00, 0x00, 0x00, 0x19,
  0x0c, 0x00, 0x0c, 0x00, 0x0b, 0x00, 0x00, 0x00, 0x00, 0x00, 0x04, 0x00,
  0x0c, 0x00, 0x00, 0x00, 0x09, 0x00, 0x00, 0x00, 0x00, 0x00, 0x00, 0x09
};
unsigned int env_student_model_tflite_len = 3792;
